00011011
00000101
00000010
11101100
11011000
11110001
00000001
11110001
11111011
00001010
01111111
00100100
11011001
01111111
00011010
00011100
01010111
00100100
00001011
00111110
01000000
11000101
10110000
11010111
00100001
00001011
11110110
00010101
11111100
11100100
00001111
11111100
11100110
00010010
11111110
11100110
11000111
01100011
11001010
10110100
01001111
11001110
00111111
00011111
10111110
00011101
11111001
11110000
11101100
11011100
11100110
00001001
11111001
00010101
00001101
11110110
11110001
00010011
11111100
11101111
00010000
11111111
11110000
11101001
00111111
00001010
11100100
11110010
10111101
00100111
00101111
11110000
11100100
11110100
11110000
00111110
00111100
00011100
11110100
11000101
11010011
01100011
11101011
11000000
00011100
11010000
00001111
11001001
11110011
00110110
00011111
00000011
11011000
00010110
11111100
11011110
00010000
11111101
11101001
11110000
11110011
00000110
11110100
11111011
00001110
11111010
11110011
11111011
00000101
00001001
00000111
00000101
00000111
00000010
00001001
00000100
11111001
11111010
00000010
00000111
11110011
11111011
11111100
11111100
00001011
00000111
11111000
11110110
11110111
11110011
11110010
11110111
00000110
11111011
00001010
00001001
00001100
00001010
11111100
11111111
11111011
00000010
00000011
00000000
00101101
00011010
11101011
11001100
11010101
11010110
00011001
00011010
00011111
00000111
11111100
11110100
00001010
11111100
11111001
11111000
11110101
11110010
01100100
11111111
10100101
11110101
11101100
00011111
10111100
00000000
01001011
11110011
11111000
11111001
00000010
11111011
11111001
00000110
11111100
11110101
11110010
00110000
11100100
11100100
00101000
11011110
00010011
00011010
11101101
01001000
11100111
11011101
11011010
11101111
00011000
11101110
11110010
00011110
00001010
11110001
11100001
00011001
00000011
11101100
00011000
00000000
11101011
01010100
01011011
11000100
00100001
01010101
11011000
10110100
00110011
00011000
10111011
01000101
00111010
00101111
00110001
10110000
10111101
00110110
00101101
11110110
11111001
11111101
11110100
11110011
11110111
00000100
11111110
00001101
11101001
11011101
11101111
00010010
11111100
00001110
00001010
11110100
11101101
00100100
00110011
00001011
11100011
11100011
11100111
11011110
11100001
00000111
11111010
11111010
11111111
11111110
11111011
11111111
00000010
11111110
11111110
00000110
11111011
11111100
00000011
11111100
11111100
11111101
11111101
11111011
00010011
00010100
00001011
11100011
11010100
11101111
00010001
00000010
00100011
11001110
00011101
00010001
00110010
00101110
10111101
11101010
00101101
11010100
00001010
00010101
00000111
00000100
00001000
11111100
00001101
00001001
11111000
00000100
11101100
11100010
00001000
11111110
11110011
00100001
00010101
11111110
11111010
00000110
00010001
11111011
00000101
11101011
00010011
00001100
11101101
00011101
11111110
11011011
00101000
00000111
11100000
00010101
11111100
11101001
11101010
11011000
11011100
11111101
00000000
11111100
00011101
00110011
00100100
11000011
00110110
11010011
11011110
01000011
00000110
11111111
00101111
11101000
00000010
00000011
00000111
11111101
00000011
00000010
00000101
00000100
11111110
11101101
00000100
11110011
00010011
00010011
00001011
11110000
11111010
11101111
00011010
11111101
00010101
11110111
11001111
11100101
00000101
11101011
00001010
00000010
00110110
11010001
11100011
01000110
11100101
11010110
00110000
00001001
11111010
11111100
11110111
00000011
00000110
11111001
00010110
00011010
00001100
11111100
11111100
11111111
11111101
11111110
11111110
00000001
11111111
00000001
00010100
11101001
00001001
11100001
11101101
00011100
11100100
11100000
11111010
00000011
00000101
00000100
00000011
00000011
00000011
00000011
00000011
00000010
11101001
11111011
11110101
00001100
00011101
00010100
00001000
11111000
11110101
00110101
10011101
01011100
01000000
10100111
11011111
00111001
11010111
11110001
11001110
00000111
01000011
11101010
00000010
00010111
00010000
00000000
11011111
00000110
11111101
11101100
11100111
11111001
11101111
00000010
00101000
00011001
00001111
00010110
11001010
00101001
00011000
11001111
00100000
00000001
11010010
11101110
00100001
00100001
11001010
11100111
11110001
00100101
00100000
11101011
00000100
00001011
00001000
00000100
00000110
00000011
00000101
00000001
11110111
01001011
11110001
11001001
11010010
00000010
00110010
11010101
11101011
00100111
11111100
00000011
00000110
00000010
00001001
00000100
00000111
00001000
11111001
00001000
11110011
00001010
00001011
11110111
00001010
11111010
11101100
11111010
11101001
11111101
00100100
00011101
00010000
11100010
11110101
00000110
11101101
00000000
11101011
11111001
11110111
11100111
11110100
00000101
11111011
00001010
11100110
10010010
00111010
00011011
10000111
11101010
00101000
10101100
11101001
10010110
11111011
01110011
00010010
00000011
11101111
01010011
00000000
10101000
00001010
11111101
00001000
11111000
11111001
00001000
11110100
11110101
11111100
00010101
00000101
00010010
11101100
11110101
00001101
11111010
11101111
11111000
11010000
00000011
00101001
11001011
00010100
01000010
11001001
00000000
00101100
11001110
11101110
00011110
11101100
00001010
00010010
11101100
00000101
00001000
